const unsigned char TinyML_model[] = {
  0x1c, 0x00, 0x00, 0x00, 0x54, 0x46, 0x4c, 0x33, 0x14, 0x00, 0x20, 0x00, 0x1c, 0x00, 0x18, 0x00, 0x14, 0x00, 0x10, 0x00, 0x0c, 0x00, 0x00, 0x00, 0x08, 0x00, 0x04, 0x00, 0x14, 0x00, 0x00, 0x00, 0x1c, 0x00, 0x00, 0x00, 0x8c, 0x00, 0x00, 0x00, 0xe4, 0x00, 0x00, 0x00, 0x10, 0x05, 0x00, 0x00, 0x20, 0x05, 0x00, 0x00, 0xa0, 0x0a, 0x00, 0x00, 0x03, 0x00, 0x00, 0x00, 0x01, 0x00, 0x00, 0x00, 0x04, 0x00, 0x00, 0x00, 0xa2, 0xfa, 0xff, 0xff, 0x0c, 0x00, 0x00, 0x00, 0x1c, 0x00, 0x00, 0x00, 0x3c, 0x00, 0x00, 0x00, 0x0f, 0x00, 0x00, 0x00, 0x73, 0x65, 0x72, 0x76, 0x69, 0x6e, 0x67, 0x5f, 0x64, 0x65, 0x66, 0x61, 0x75, 0x6c, 0x74, 0x00, 0x01, 0x00, 0x00, 0x00, 0x04, 0x00, 0x00, 0x00, 0x90, 0xff, 0xff, 0xff, 0x0a, 0x00, 0x00, 0x00, 0x04, 0x00, 0x00, 0x00, 0x08, 0x00, 0x00, 0x00, 0x6f, 0x75, 0x74, 0x70, 0x75, 0x74, 0x5f, 0x30, 0x00, 0x00, 0x00, 0x00, 0x01, 0x00, 0x00, 0x00, 0x04, 0x00, 0x00, 0x00, 0x92, 0xfb, 0xff, 0xff, 0x04, 0x00, 0x00, 0x00, 0x0c, 0x00, 0x00, 0x00, 0x6b, 0x65, 0x72, 0x61, 0x73, 0x5f, 0x74, 0x65, 0x6e, 0x73, 0x6f, 0x72, 0x00, 0x00, 0x00, 0x00, 0x02, 0x00, 0x00, 0x00, 0x34, 0x00, 0x00, 0x00, 0x04, 0x00, 0x00, 0x00, 0xdc, 0xff, 0xff, 0xff, 0x0d, 0x00, 0x00, 0x00, 0x04, 0x00, 0x00, 0x00, 0x13, 0x00, 0x00, 0x00, 0x43, 0x4f, 0x4e, 0x56, 0x45, 0x52, 0x53, 0x49, 0x4f, 0x4e, 0x5f, 0x4d, 0x45, 0x54, 0x41, 0x44, 0x41, 0x54, 0x41, 0x00, 0x08, 0x00, 0x0c, 0x00, 0x08, 0x00, 0x04, 0x00, 0x08, 0x00, 0x00, 0x00, 0x0c, 0x00, 0x00, 0x00, 0x04, 0x00, 0x00, 0x00, 0x13, 0x00, 0x00, 0x00, 0x6d, 0x69, 0x6e, 0x5f, 0x72, 0x75, 0x6e, 0x74, 0x69, 0x6d, 0x65, 0x5f, 0x76, 0x65, 0x72, 0x73, 0x69, 0x6f, 0x6e, 0x00, 0x0e, 0x00, 0x00, 0x00, 0x28, 0x04, 0x00, 0x00, 0x20, 0x04, 0x00, 0x00, 0xf0, 0x03, 0x00, 0x00, 0xd4, 0x03, 0x00, 0x00, 0xa4, 0x03, 0x00, 0x00, 0x94, 0x01, 0x00, 0x00, 0x04, 0x01, 0x00, 0x00, 0xb4, 0x00, 0x00, 0x00, 0xac, 0x00, 0x00, 0x00, 0xa4, 0x00, 0x00, 0x00, 0x9c, 0x00, 0x00, 0x00, 0x94, 0x00, 0x00, 0x00, 0x74, 0x00, 0x00, 0x00, 0x04, 0x00, 0x00, 0x00, 0x46, 0xfc, 0xff, 0xff, 0x04, 0x00, 0x00, 0x00, 0x60, 0x00, 0x00, 0x00, 0x0c, 0x00, 0x00, 0x00, 0x08, 0x00, 0x0e, 0x00, 0x08, 0x00, 0x04, 0x00, 0x08, 0x00, 0x00, 0x00, 0x10, 0x00, 0x00, 0x00, 0x28, 0x00, 0x00, 0x00, 0x00, 0x00, 0x06, 0x00, 0x08, 0x00, 0x04, 0x00, 0x06, 0x00, 0x00, 0x00, 0x04, 0x00, 0x00, 0x00, 0x01, 0x00, 0x00, 0x00, 0xea, 0x03, 0x00, 0x00, 0x0c, 0x00, 0x18, 0x00, 0x14, 0x00, 0x10, 0x00, 0x0c, 0x00, 0x04, 0x00, 0x0c, 0x00, 0x00, 0x00, 0x05, 0xad, 0xff, 0x25, 0x62, 0xf5, 0x36, 0x71, 0x02, 0x00, 0x00, 0x00, 0x02, 0x00, 0x00, 0x00, 0x04, 0x00, 0x00, 0x00, 0x06, 0x00, 0x00, 0x00, 0x32, 0x2e, 0x32, 0x30, 0x2e, 0x30, 0x00, 0x00, 0xb2, 0xfc, 0xff, 0xff, 0x04, 0x00, 0x00, 0x00, 0x10, 0x00, 0x00, 0x00, 0x31, 0x2e, 0x31, 0x34, 0x2e, 0x30, 0x00, 0x00, 0x00, 0x00, 0x00, 0x00, 0x00, 0x00, 0x00, 0x00, 0x34, 0xf7, 0xff, 0xff, 0x38, 0xf7, 0xff, 0xff, 0x3c, 0xf7, 0xff, 0xff, 0x40, 0xf7, 0xff, 0xff, 0xde, 0xfc, 0xff, 0xff, 0x04, 0x00, 0x00, 0x00, 0x40, 0x00, 0x00, 0x00, 0xe1, 0x33, 0xc7, 0x3d, 0x74, 0x13, 0xbc, 0x3d, 0xd6, 0xf8, 0xc3, 0x3d, 0x00, 0x00, 0x00, 0x00, 0x00, 0x00, 0x00, 0x00, 0xbd, 0x30, 0xd3, 0x3d, 0x00, 0x00, 0x00, 0x00, 0x00, 0x00, 0x00, 0x00, 0x11, 0x29, 0xd9, 0x3d, 0x00, 0x00, 0x00, 0x00, 0x27, 0x15, 0xd7, 0x3d, 0xc9, 0xea, 0xb5, 0xbb, 0xca, 0xfa, 0xaf, 0xbd, 0x00, 0x00, 0x00, 0x00, 0xe9, 0x68, 0xc9, 0x3d, 0x92, 0xdb, 0xbb, 0x3d, 0x2a, 0xfd, 0xff, 0xff, 0x04, 0x00, 0x00, 0x00, 0x80, 0x00, 0x00, 0x00, 0xbe, 0xaa, 0x15, 0x3f, 0x67, 0x3e, 0xb0, 0xbe, 0xaf, 0x3e, 0xa1, 0x3e, 0x44, 0x65, 0xf3, 0x3e, 0x31, 0xc1, 0x42, 0x3e, 0xee, 0x68, 0x8f, 0x3e, 0x46, 0x48, 0xf9, 0xbe, 0x70, 0xcb, 0xbb, 0x3d, 0x2c, 0xb5, 0x8e, 0xbe, 0xe3, 0x65, 0x9a, 0xbe, 0x0f, 0x3c, 0x84, 0x3e, 0xc8, 0x73, 0x41, 0x3d, 0x2c, 0x76, 0xe1, 0xbe, 0xbe, 0x23, 0xb5, 0x3e, 0x50, 0x4d, 0x02, 0xbe, 0xb4, 0x91, 0xaf, 0xbd, 0x2b, 0x5c, 0xef, 0x3e, 0x8c, 0xa5, 0x00, 0xbf, 0x82, 0xd2, 0x42, 0xbe, 0xfd, 0xe4, 0x12, 0xbf, 0x28, 0x2f, 0xab, 0x3e, 0x5f, 0x7f, 0x56, 0xbe, 0x6d, 0xab, 0x70, 0xbe, 0x52, 0x15, 0x60, 0x3e, 0x7b, 0xcd, 0x08, 0x3f, 0x16, 0xe3, 0x36, 0x3e, 0x8c, 0xa2, 0x08, 0xbf, 0x36, 0x4a, 0x80, 0x3e, 0x2b, 0x2e, 0x9f, 0x3e, 0x51, 0xb4, 0x39, 0x3d, 0x77, 0x5c, 0xb5, 0x3e, 0x7c, 0xc8, 0xe1, 0x3e, 0xb6, 0xfd, 0xff, 0xff, 0x04, 0x00, 0x00, 0x00, 0x00, 0x02, 0x00, 0x00, 0x2c, 0x4f, 0xf7, 0xbe, 0xa0, 0x4a, 0xfe, 0x3d, 0x28, 0xbf, 0x4a, 0x3e, 0x7c, 0x53, 0xd8, 0xbe, 0xf8, 0xc5, 0x54, 0x3e, 0x6c, 0x5c, 0xfd, 0xbe, 0xa0, 0x18, 0x17, 0x3d, 0x20, 0xf4, 0xb4, 0x3e, 0xe0, 0x95, 0x4f, 0xbd, 0x98, 0x0c, 0x99, 0xbe, 0x54, 0x84, 0xd2, 0x3e, 0xe8, 0xc7, 0xed, 0x3e, 0x84, 0xf6, 0xf3, 0xbe, 0x80, 0x7c, 0xc3, 0xbc, 0xe0, 0x5f, 0x92, 0xbe, 0x00, 0xa5, 0xf8, 0x3e, 0xce, 0xc4, 0x68, 0xbe, 0xd2, 0x26, 0x33, 0xbe, 0x47, 0xaa, 0xb4, 0x3e, 0x70, 0x22, 0xda, 0xbd, 0x48, 0x49, 0x90, 0x3e, 0x0c, 0x2a, 0x0c, 0x3d, 0x90, 0x42, 0xc0, 0xbd, 0x60, 0xf8, 0x21, 0xbd, 0x56, 0x11, 0x92, 0xbe, 0xf4, 0xa2, 0xa7, 0xbe, 0x38, 0x1a, 0x85, 0x3e, 0x59, 0x5e, 0x14, 0x3e, 0x4e, 0x3b, 0xa3, 0x3e, 0x80, 0x09, 0xb3, 0x3d, 0x3e, 0xe0, 0xe3, 0x3e, 0x17, 0x23, 0xc2, 0x3e, 0xa0, 0xb1, 0xce, 0x3d, 0xa0, 0xe5, 0x0b, 0xbd, 0x84, 0x08, 0x9f, 0xbe, 0x90, 0x1b, 0x9b, 0x3d, 0x80, 0x0e, 0x7f, 0xbd, 0xe0, 0x48, 0x42, 0x3e, 0x24, 0xe3, 0x95, 0xbe, 0xa0, 0x2d, 0x1c, 0x3d, 0x2c, 0xa9, 0xef, 0x3e, 0x40, 0x36, 0x93, 0x3e, 0xa0, 0x62, 0x8d, 0xbe, 0x40, 0xf9, 0xee, 0xbe, 0x40, 0x47, 0x3f, 0xbd, 0x00, 0x01, 0xec, 0x3d, 0x58, 0xd6, 0xb4, 0xbe, 0xd8, 0xe9, 0x79, 0xbe, 0xa1, 0x21, 0x17, 0x3e, 0x47, 0x96, 0xac, 0x3d, 0xcb, 0x4b, 0xfe, 0xbe, 0x10, 0x51, 0x75, 0x3e, 0x28, 0x5d, 0xff, 0x3e, 0x08, 0x4c, 0x1b, 0x3e, 0x30, 0x4b, 0x30, 0xbe, 0xec, 0xd0, 0x81, 0x3e, 0xc2, 0xc0, 0x80, 0x3e, 0x14, 0xac, 0x95, 0x3e, 0x3e, 0xb8, 0xfb, 0xbe, 0x70, 0xf5, 0x61, 0xbe, 0x93, 0x80, 0xa2, 0x3e, 0x8c, 0xe4, 0x81, 0x3e, 0x3a, 0x0e, 0x84, 0x3e, 0xf7, 0xee, 0xab, 0xbe, 0x8c, 0xb3, 0x9b, 0x3e, 0xab, 0xb0, 0xac, 0x3d, 0xc8, 0x72, 0xc1, 0x3d, 0x00, 0x58, 0x4b, 0x3a, 0xc8, 0x27, 0x81, 0x3e, 0xdc, 0xcf, 0xe2, 0x3e, 0x90, 0xb9, 0x90, 0x3d, 0xa0, 0xf2, 0x3d, 0xbe, 0x14, 0x6b, 0xc3, 0x3d, 0xc0, 0xd1, 0xf2, 0xbc, 0xf2, 0x4f, 0x70, 0x3e, 0x94, 0x38, 0xd6, 0x3e, 0xc1, 0x07, 0x09, 0x3e, 0x84, 0xee, 0x84, 0xbe, 0x95, 0x67, 0xe1, 0x3e, 0x67, 0xc8, 0x0f, 0xbe, 0xb3, 0x83, 0xf9, 0x3d, 0xdb, 0x9d, 0x28, 0xbc, 0x96, 0xe8, 0xb5, 0x3e, 0xe0, 0x33, 0x8b, 0xbd, 0x00, 0xef, 0x14, 0x3d, 0xc0, 0x3c, 0xdb, 0x3e, 0xac, 0xc9, 0xc5, 0xbe, 0xc0, 0xac, 0x95, 0x3c, 0x70, 0x65, 0xae, 0x3d, 0x40, 0x10, 0x21, 0xbe, 0xd7, 0x7d, 0x82, 0xbe, 0x2e, 0x6c, 0x83, 0xbd, 0xd9, 0x61, 0xfb, 0x3e, 0xe4, 0x7f, 0xd2, 0x3e, 0x9b, 0x1e, 0xc0, 0x3e, 0x55, 0x80, 0x75, 0x3e, 0x04, 0xb8, 0xf3, 0x3e, 0x9e, 0xd0, 0x83, 0xbd, 0x0d, 0x58, 0xee, 0x3e, 0xfc, 0x0d, 0xa6, 0xbe, 0xb4, 0x04, 0xe9, 0x3e, 0xb9, 0xb1, 0xbe, 0x3e, 0x9c, 0x12, 0xdb, 0xbe, 0xcc, 0x97, 0xc8, 0xbe, 0xb2, 0xac, 0x12, 0x3f, 0xc0, 0xa7, 0x95, 0xbc, 0x7f, 0x3d, 0x14, 0x3e, 0xbf, 0x00, 0x9c, 0xbe, 0xbf, 0x26, 0xad, 0xbe, 0x00, 0x52, 0x51, 0xbb, 0x67, 0xb9, 0x7f, 0x3e, 0xc0, 0xf6, 0x10, 0x3e, 0x0b, 0xeb, 0xeb, 0x3e, 0x03, 0x49, 0x99, 0x3e, 0xfc, 0x19, 0x52, 0xbe, 0x80, 0x12, 0xd0, 0x3c, 0xd0, 0xec, 0xe1, 0x3d, 0x49, 0xc8, 0xe4, 0xbd, 0x90, 0xa3, 0xe3, 0x3d, 0x20, 0x81, 0x60, 0xbd, 0x57, 0x46, 0x21, 0x3f, 0x40, 0x48, 0xab, 0x3e, 0xc9, 0x3e, 0x89, 0xbd, 0xbf, 0x49, 0x7b, 0xbe, 0xea, 0x34, 0x2b, 0xbd, 0x00, 0xad, 0x5e, 0xbd, 0x7f, 0x51, 0xee, 0xbd, 0xa9, 0x38, 0x94, 0x3e, 0xc2, 0xff, 0xff, 0xff, 0x04, 0x00, 0x00, 0x00, 0x20, 0x00, 0x00, 0x00, 0x82, 0xee, 0x0d, 0xbf, 0x04, 0x94, 0x87, 0xbe, 0xcc, 0x32, 0x19, 0x3f, 0x9c, 0xb7, 0x60, 0x3d, 0x4b, 0x66, 0xea, 0xbe, 0x77, 0xc0, 0xa6, 0x3e, 0x1d, 0x11, 0xf9, 0xbe, 0xcc, 0x5a, 0x51, 0xbf, 0xee, 0xff, 0xff, 0xff, 0x04, 0x00, 0x00, 0x00, 0x04, 0x00, 0x00, 0x00, 0x27, 0xc0, 0xb7, 0xbd, 0x00, 0x00, 0x06, 0x00, 0x08, 0x00, 0x04, 0x00, 0x06, 0x00, 0x00, 0x00, 0x04, 0x00, 0x00, 0x00, 0x20, 0x00, 0x00, 0x00, 0x00, 0x00, 0x00, 0x00, 0xc0, 0x63, 0xb8, 0x3d, 0x00, 0x00, 0x00, 0x00, 0xbc, 0x24, 0x58, 0xbc, 0xce, 0x4e, 0xbb, 0x3d, 0x16, 0xc7, 0xb5, 0xbd, 0x4f, 0xa1, 0xbc, 0x3d, 0xfa, 0x4c, 0xba, 0x3d, 0x98, 0xfa, 0xff, 0xff, 0x9c, 0xfa, 0xff, 0xff, 0x0f, 0x00, 0x00, 0x00, 0x4d, 0x4c, 0x49, 0x52, 0x20, 0x43, 0x6f, 0x6e, 0x76, 0x65, 0x72, 0x74, 0x65, 0x64, 0x2e, 0x00, 0x01, 0x00, 0x00, 0x00, 0x14, 0x00, 0x00, 0x00, 0x00, 0x00, 0x0e, 0x00, 0x18, 0x00, 0x14, 0x00, 0x10, 0x00, 0x0c, 0x00, 0x08, 0x00, 0x04, 0x00, 0x0e, 0x00, 0x00, 0x00, 0x14, 0x00, 0x00, 0x00, 0x1c, 0x00, 0x00, 0x00, 0x08, 0x01, 0x00, 0x00, 0x0c, 0x01, 0x00, 0x00, 0x10, 0x01, 0x00, 0x00, 0x04, 0x00, 0x00, 0x00, 0x6d, 0x61, 0x69, 0x6e, 0x00, 0x00, 0x00, 0x00, 0x04, 0x00, 0x00, 0x00, 0xb0, 0x00, 0x00, 0x00, 0x68, 0x00, 0x00, 0x00, 0x34, 0x00, 0x00, 0x00, 0x10, 0x00, 0x00, 0x00, 0x00, 0x00, 0x0a, 0x00, 0x10, 0x00, 0x0c, 0x00, 0x08, 0x00, 0x04, 0x00, 0x0a, 0x00, 0x00, 0x00, 0x0c, 0x00, 0x00, 0x00, 0x10, 0x00, 0x00, 0x00, 0x01, 0x00, 0x00, 0x00, 0x01, 0x00, 0x00, 0x00, 0x0a, 0x00, 0x00, 0x00, 0x01, 0x00, 0x00, 0x00, 0x09, 0x00, 0x00, 0x00, 0x9a, 0xff, 0xff, 0xff, 0x10, 0x00, 0x00, 0x00, 0x00, 0x00, 0x00, 0x08, 0x0c, 0x00, 0x00, 0x00, 0x10, 0x00, 0x00, 0x00, 0x44, 0xfb, 0xff, 0xff, 0x01, 0x00, 0x00, 0x00, 0x09, 0x00, 0x00, 0x00, 0x03, 0x00, 0x00, 0x00, 0x08, 0x00, 0x00, 0x00, 0x03, 0x00, 0x00, 0x00, 0x02, 0x00, 0x00, 0x00, 0xca, 0xff, 0xff, 0xff, 0x10, 0x00, 0x00, 0x00, 0x00, 0x00, 0x00, 0x08, 0x10, 0x00, 0x00, 0x00, 0x14, 0x00, 0x00, 0x00, 0xba, 0xff, 0xff, 0xff, 0x00, 0x00, 0x00, 0x01, 0x01, 0x00, 0x00, 0x00, 0x08, 0x00, 0x00, 0x00, 0x03, 0x00, 0x00, 0x00, 0x07, 0x00, 0x00, 0x00, 0x04, 0x00, 0x00, 0x00, 0x01, 0x00, 0x00, 0x00, 0x00, 0x00, 0x0e, 0x00, 0x16, 0x00, 0x00, 0x00, 0x10, 0x00, 0x0c, 0x00, 0x0b, 0x00, 0x04, 0x00, 0x0e, 0x00, 0x00, 0x00, 0x18, 0x00, 0x00, 0x00, 0x00, 0x00, 0x00, 0x08, 0x18, 0x00, 0x00, 0x00, 0x1c, 0x00, 0x00, 0x00, 0x00, 0x00, 0x06, 0x00, 0x08, 0x00, 0x07, 0x00, 0x06, 0x00, 0x00, 0x00, 0x00, 0x00, 0x00, 0x01, 0x01, 0x00, 0x00, 0x00, 0x07, 0x00, 0x00, 0x00, 0x03, 0x00, 0x00, 0x00, 0x00, 0x00, 0x00, 0x00, 0x05, 0x00, 0x00, 0x00, 0x06, 0x00, 0x00, 0x00, 0x01, 0x00, 0x00, 0x00, 0x0a, 0x00, 0x00, 0x00, 0x01, 0x00, 0x00, 0x00, 0x00, 0x00, 0x00, 0x00, 0x0b, 0x00, 0x00, 0x00, 0xe4, 0x03, 0x00, 0x00, 0x90, 0x03, 0x00, 0x00, 0x3c, 0x03, 0x00, 0x00, 0xfc, 0x02, 0x00, 0x00, 0xbc, 0x02, 0x00, 0x00, 0x70, 0x02, 0x00, 0x00, 0x0c, 0x02, 0x00, 0x00, 0x78, 0x01, 0x00, 0x00, 0xdc, 0x00, 0x00, 0x00, 0x60, 0x00, 0x00, 0x00, 0x04, 0x00, 0x00, 0x00, 0x5e, 0xfc, 0xff, 0xff, 0x00, 0x00, 0x00, 0x01, 0x14, 0x00, 0x00, 0x00, 0x1c, 0x00, 0x00, 0x00, 0x1c, 0x00, 0x00, 0x00, 0x0b, 0x00, 0x00, 0x00, 0x34, 0x00, 0x00, 0x00, 0x02, 0x00, 0x00, 0x00, 0xff, 0xff, 0xff, 0xff, 0x01, 0x00, 0x00, 0x00, 0x48, 0xfc, 0xff, 0xff, 0x1b, 0x00, 0x00, 0x00, 0x53, 0x74, 0x61, 0x74, 0x65, 0x66, 0x75, 0x6c, 0x50, 0x61, 0x72, 0x74, 0x69, 0x74, 0x69, 0x6f, 0x6e, 0x65, 0x64, 0x43, 0x61, 0x6c, 0x6c, 0x5f, 0x31, 0x3a, 0x30, 0x00, 0x02, 0x00, 0x00, 0x00, 0x01, 0x00, 0x00, 0x00, 0x01, 0x00, 0x00, 0x00, 0xb6, 0xfc, 0xff, 0xff, 0x00, 0x00, 0x00, 0x01, 0x14, 0x00, 0x00, 0x00, 0x1c, 0x00, 0x00, 0x00, 0x1c, 0x00, 0x00, 0x00, 0x0a, 0x00, 0x00, 0x00, 0x54, 0x00, 0x00, 0x00, 0x02, 0x00, 0x00, 0x00, 0xff, 0xff, 0xff, 0xff, 0x01, 0x00, 0x00, 0x00, 0xa0, 0xfc, 0xff, 0xff, 0x38, 0x00, 0x00, 0x00, 0x73, 0x65, 0x71, 0x75, 0x65, 0x6e, 0x74, 0x69, 0x61, 0x6c, 0x5f, 0x31, 0x2f, 0x64, 0x65, 0x6e, 0x73, 0x65, 0x5f, 0x32, 0x5f, 0x31, 0x2f, 0x4d, 0x61, 0x74, 0x4d, 0x75, 0x6c, 0x3b, 0x73, 0x65, 0x71, 0x75, 0x65, 0x6e, 0x74, 0x69, 0x61, 0x6c, 0x5f, 0x31, 0x2f, 0x64, 0x65, 0x6e, 0x73, 0x65, 0x5f, 0x32, 0x5f, 0x31, 0x2f, 0x41, 0x64, 0x64, 0x00, 0x00, 0x00, 0x00, 0x02, 0x00, 0x00, 0x00, 0x01, 0x00, 0x00, 0x00, 0x01, 0x00, 0x00, 0x00, 0x2e, 0xfd, 0xff, 0xff, 0x00, 0x00, 0x00, 0x01, 0x14, 0x00, 0x00, 0x00, 0x1c, 0x00, 0x00, 0x00, 0x1c, 0x00, 0x00, 0x00, 0x09, 0x00, 0x00, 0x00, 0x74, 0x00, 0x00, 0x00, 0x02, 0x00, 0x00, 0x00, 0xff, 0xff, 0xff, 0xff, 0x08, 0x00, 0x00, 0x00, 0x18, 0xfd, 0xff, 0xff, 0x58, 0x00, 0x00, 0x00, 0x73, 0x65, 0x71, 0x75, 0x65, 0x6e, 0x74, 0x69, 0x61, 0x6c, 0x5f, 0x31, 0x2f, 0x64, 0x65, 0x6e, 0x73, 0x65, 0x5f, 0x31, 0x5f, 0x32, 0x2f, 0x4d, 0x61, 0x74, 0x4d, 0x75, 0x6c, 0x3b, 0x73, 0x65, 0x71, 0x75, 0x65, 0x6e, 0x74, 0x69, 0x61, 0x6c, 0x5f, 0x31, 0x2f, 0x64, 0x65, 0x6e, 0x73, 0x65, 0x5f, 0x31, 0x5f, 0x32, 0x2f, 0x52, 0x65, 0x6c, 0x75, 0x3b, 0x73, 0x65, 0x71, 0x75, 0x65, 0x6e, 0x74, 0x69, 0x61, 0x6c, 0x5f, 0x31, 0x2f, 0x64, 0x65, 0x6e, 0x73, 0x65, 0x5f, 0x31, 0x5f, 0x32, 0x2f, 0x42, 0x69, 0x61, 0x73, 0x41, 0x64, 0x64, 0x00, 0x00, 0x00, 0x00, 0x02, 0x00, 0x00, 0x00, 0x01, 0x00, 0x00, 0x00, 0x08, 0x00, 0x00, 0x00, 0xc6, 0xfd, 0xff, 0xff, 0x00, 0x00, 0x00, 0x01, 0x14, 0x00, 0x00, 0x00, 0x1c, 0x00, 0x00, 0x00, 0x1c, 0x00, 0x00, 0x00, 0x08, 0x00, 0x00, 0x00, 0x6c, 0x00, 0x00, 0x00, 0x02, 0x00, 0x00, 0x00, 0xff, 0xff, 0xff, 0xff, 0x10, 0x00, 0x00, 0x00, 0xb0, 0xfd, 0xff, 0xff, 0x52, 0x00, 0x00, 0x00, 0x73, 0x65, 0x71, 0x75, 0x65, 0x6e, 0x74, 0x69, 0x61, 0x6c, 0x5f, 0x31, 0x2f, 0x64, 0x65, 0x6e, 0x73, 0x65, 0x5f, 0x31, 0x2f, 0x4d, 0x61, 0x74, 0x4d, 0x75, 0x6c, 0x3b, 0x73, 0x65, 0x71, 0x75, 0x65, 0x6e, 0x74, 0x69, 0x61, 0x6c, 0x5f, 0x31, 0x2f, 0x64, 0x65, 0x6e, 0x73, 0x65, 0x5f, 0x31, 0x2f, 0x52, 0x65, 0x6c, 0x75, 0x3b, 0x73, 0x65, 0x71, 0x75, 0x65, 0x6e, 0x74, 0x69, 0x61, 0x6c, 0x5f, 0x31, 0x2f, 0x64, 0x65, 0x6e, 0x73, 0x65, 0x5f, 0x31, 0x2f, 0x42, 0x69, 0x61, 0x73, 0x41, 0x64, 0x64, 0x00, 0x00, 0x02, 0x00, 0x00, 0x00, 0x01, 0x00, 0x00, 0x00, 0x10, 0x00, 0x00, 0x00, 0xa6, 0xfe, 0xff, 0xff, 0x00, 0x00, 0x00, 0x01, 0x10, 0x00, 0x00, 0x00, 0x10, 0x00, 0x00, 0x00, 0x07, 0x00, 0x00, 0x00, 0x44, 0x00, 0x00, 0x00, 0x30, 0xfe, 0xff, 0xff, 0x36, 0x00, 0x00, 0x00, 0x73, 0x65, 0x71, 0x75, 0x65, 0x6e, 0x74, 0x69, 0x61, 0x6c, 0x5f, 0x31, 0x2f, 0x64, 0x65, 0x6e, 0x73, 0x65, 0x5f, 0x31, 0x2f, 0x52, 0x65, 0x6c, 0x75, 0x3b, 0x73, 0x65, 0x71, 0x75, 0x65, 0x6e, 0x74, 0x69, 0x61, 0x6c, 0x5f, 0x31, 0x2f, 0x64, 0x65, 0x6e, 0x73, 0x65, 0x5f, 0x31, 0x2f, 0x42, 0x69, 0x61, 0x73, 0x41, 0x64, 0x64, 0x00, 0x00, 0x01, 0x00, 0x00, 0x00, 0x10, 0x00, 0x00, 0x00, 0x06, 0xff, 0xff, 0xff, 0x00, 0x00, 0x00, 0x01, 0x10, 0x00, 0x00, 0x00, 0x10, 0x00, 0x00, 0x00, 0x06, 0x00, 0x00, 0x00, 0x28, 0x00, 0x00, 0x00, 0x90, 0xfe, 0xff, 0xff, 0x1b, 0x00, 0x00, 0x00, 0x73, 0x65, 0x71, 0x75, 0x65, 0x6e, 0x74, 0x69, 0x61, 0x6c, 0x5f, 0x31, 0x2f, 0x64, 0x65, 0x6e, 0x73, 0x65, 0x5f, 0x31, 0x2f, 0x4d, 0x61, 0x74, 0x4d, 0x75, 0x6c, 0x00, 0x02, 0x00, 0x00, 0x00, 0x10, 0x00, 0x00, 0x00, 0x02, 0x00, 0x00, 0x00, 0x4e, 0xff, 0xff, 0xff, 0x00, 0x00, 0x00, 0x01, 0x10, 0x00, 0x00, 0x00, 0x10, 0x00, 0x00, 0x00, 0x05, 0x00, 0x00, 0x00, 0x1c, 0x00, 0x00, 0x00, 0xd8, 0xfe, 0xff, 0xff, 0x0f, 0x00, 0x00, 0x00, 0x61, 0x72, 0x69, 0x74, 0x68, 0x2e, 0x63, 0x6f, 0x6e, 0x73, 0x74, 0x61, 0x6e, 0x74, 0x33, 0x00, 0x02, 0x00, 0x00, 0x00, 0x08, 0x00, 0x00, 0x00, 0x10, 0x00, 0x00, 0x00, 0x8a, 0xff, 0xff, 0xff, 0x00, 0x00, 0x00, 0x01, 0x10, 0x00, 0x00, 0x00, 0x10, 0x00, 0x00, 0x00, 0x04, 0x00, 0x00, 0x00, 0x1c, 0x00, 0x00, 0x00, 0x14, 0xff, 0xff, 0xff, 0x0f, 0x00, 0x00, 0x00, 0x61, 0x72, 0x69, 0x74, 0x68, 0x2e, 0x63, 0x6f, 0x6e, 0x73, 0x74, 0x61, 0x6e, 0x74, 0x32, 0x00, 0x02, 0x00, 0x00, 0x00, 0x01, 0x00, 0x00, 0x00, 0x08, 0x00, 0x00, 0x00, 0xc6, 0xff, 0xff, 0xff, 0x00, 0x00, 0x00, 0x01, 0x10, 0x00, 0x00, 0x00, 0x10, 0x00, 0x00, 0x00, 0x03, 0x00, 0x00, 0x00, 0x1c, 0x00, 0x00, 0x00, 0x50, 0xff, 0xff, 0xff, 0x0f, 0x00, 0x00, 0x00, 0x61, 0x72, 0x69, 0x74, 0x68, 0x2e, 0x63, 0x6f, 0x6e, 0x73, 0x74, 0x61, 0x6e, 0x74, 0x31, 0x00, 0x01, 0x00, 0x00, 0x00, 0x01, 0x00, 0x00, 0x00, 0x00, 0x00, 0x16, 0x00, 0x18, 0x00, 0x14, 0x00, 0x00, 0x00, 0x10, 0x00, 0x0c, 0x00, 0x08, 0x00, 0x00, 0x00, 0x00, 0x00, 0x00, 0x00, 0x07, 0x00, 0x16, 0x00, 0x00, 0x00, 0x00, 0x00, 0x00, 0x01, 0x10, 0x00, 0x00, 0x00, 0x10, 0x00, 0x00, 0x00, 0x02, 0x00, 0x00, 0x00, 0x1c, 0x00, 0x00, 0x00, 0xa0, 0xff, 0xff, 0xff, 0x0e, 0x00, 0x00, 0x00, 0x61, 0x72, 0x69, 0x74, 0x68, 0x2e, 0x63, 0x6f, 0x6e, 0x73, 0x74, 0x61, 0x6e, 0x74, 0x00, 0x00, 0x01, 0x00, 0x00, 0x00, 0x08, 0x00, 0x00, 0x00, 0x00, 0x00, 0x16, 0x00, 0x1c, 0x00, 0x18, 0x00, 0x00, 0x00, 0x14, 0x00, 0x10, 0x00, 0x0c, 0x00, 0x00, 0x00, 0x00, 0x00, 0x08, 0x00, 0x07, 0x00, 0x16, 0x00, 0x00, 0x00, 0x00, 0x00, 0x00, 0x01, 0x14, 0x00, 0x00, 0x00, 0x20, 0x00, 0x00, 0x00, 0x20, 0x00, 0x00, 0x00, 0x01, 0x00, 0x00, 0x00, 0x3c, 0x00, 0x00, 0x00, 0x02, 0x00, 0x00, 0x00, 0xff, 0xff, 0xff, 0xff, 0x02, 0x00, 0x00, 0x00, 0x04, 0x00, 0x04, 0x00, 0x04, 0x00, 0x00, 0x00, 0x1e, 0x00, 0x00, 0x00, 0x73, 0x65, 0x72, 0x76, 0x69, 0x6e, 0x67, 0x5f, 0x64, 0x65, 0x66, 0x61, 0x75, 0x6c, 0x74, 0x5f, 0x6b, 0x65, 0x72, 0x61, 0x73, 0x5f, 0x74, 0x65, 0x6e, 0x73, 0x6f, 0x72, 0x3a, 0x30, 0x00, 0x00, 0x02, 0x00, 0x00, 0x00, 0x01, 0x00, 0x00, 0x00, 0x02, 0x00, 0x00, 0x00, 0x02, 0x00, 0x00, 0x00, 0x20, 0x00, 0x00, 0x00, 0x04, 0x00, 0x00, 0x00, 0xf4, 0xff, 0xff, 0xff, 0x0e, 0x00, 0x00, 0x00, 0x00, 0x00, 0x00, 0x0e, 0x0c, 0x00, 0x0c, 0x00, 0x0b, 0x00, 0x00, 0x00, 0x00, 0x00, 0x04, 0x00, 0x0c, 0x00, 0x00, 0x00, 0x09, 0x00, 0x00, 0x00, 0x00, 0x00, 0x00, 0x09
};
const int TinyML_model_len = 2820;
