const unsigned char TinyML_model[] = {
  0x1c, 0x00, 0x00, 0x00, 0x54, 0x46, 0x4c, 0x33, 0x14, 0x00, 0x20, 0x00, 0x1c, 0x00, 0x18, 0x00, 0x14, 0x00, 0x10, 0x00, 0x0c, 0x00, 0x00, 0x00, 0x08, 0x00, 0x04, 0x00, 0x14, 0x00, 0x00, 0x00, 0x1c, 0x00, 0x00, 0x00, 0x8c, 0x00, 0x00, 0x00, 0xe4, 0x00, 0x00, 0x00, 0x50, 0x05, 0x00, 0x00, 0x60, 0x05, 0x00, 0x00, 0xe0, 0x0a, 0x00, 0x00, 0x03, 0x00, 0x00, 0x00, 0x01, 0x00, 0x00, 0x00, 0x04, 0x00, 0x00, 0x00, 0x62, 0xfa, 0xff, 0xff, 0x0c, 0x00, 0x00, 0x00, 0x1c, 0x00, 0x00, 0x00, 0x3c, 0x00, 0x00, 0x00, 0x0f, 0x00, 0x00, 0x00, 0x73, 0x65, 0x72, 0x76, 0x69, 0x6e, 0x67, 0x5f, 0x64, 0x65, 0x66, 0x61, 0x75, 0x6c, 0x74, 0x00, 0x01, 0x00, 0x00, 0x00, 0x04, 0x00, 0x00, 0x00, 0x90, 0xff, 0xff, 0xff, 0x0a, 0x00, 0x00, 0x00, 0x04, 0x00, 0x00, 0x00, 0x08, 0x00, 0x00, 0x00, 0x6f, 0x75, 0x74, 0x70, 0x75, 0x74, 0x5f, 0x30, 0x00, 0x00, 0x00, 0x00, 0x01, 0x00, 0x00, 0x00, 0x04, 0x00, 0x00, 0x00, 0x52, 0xfb, 0xff, 0xff, 0x04, 0x00, 0x00, 0x00, 0x0c, 0x00, 0x00, 0x00, 0x6b, 0x65, 0x72, 0x61, 0x73, 0x5f, 0x74, 0x65, 0x6e, 0x73, 0x6f, 0x72, 0x00, 0x00, 0x00, 0x00, 0x02, 0x00, 0x00, 0x00, 0x34, 0x00, 0x00, 0x00, 0x04, 0x00, 0x00, 0x00, 0xdc, 0xff, 0xff, 0xff, 0x0d, 0x00, 0x00, 0x00, 0x04, 0x00, 0x00, 0x00, 0x13, 0x00, 0x00, 0x00, 0x43, 0x4f, 0x4e, 0x56, 0x45, 0x52, 0x53, 0x49, 0x4f, 0x4e, 0x5f, 0x4d, 0x45, 0x54, 0x41, 0x44, 0x41, 0x54, 0x41, 0x00, 0x08, 0x00, 0x0c, 0x00, 0x08, 0x00, 0x04, 0x00, 0x08, 0x00, 0x00, 0x00, 0x0c, 0x00, 0x00, 0x00, 0x04, 0x00, 0x00, 0x00, 0x13, 0x00, 0x00, 0x00, 0x6d, 0x69, 0x6e, 0x5f, 0x72, 0x75, 0x6e, 0x74, 0x69, 0x6d, 0x65, 0x5f, 0x76, 0x65, 0x72, 0x73, 0x69, 0x6f, 0x6e, 0x00, 0x0e, 0x00, 0x00, 0x00, 0x68, 0x04, 0x00, 0x00, 0x60, 0x04, 0x00, 0x00, 0x30, 0x04, 0x00, 0x00, 0x14, 0x04, 0x00, 0x00, 0xe4, 0x03, 0x00, 0x00, 0xd4, 0x01, 0x00, 0x00, 0x04, 0x01, 0x00, 0x00, 0xb4, 0x00, 0x00, 0x00, 0xac, 0x00, 0x00, 0x00, 0xa4, 0x00, 0x00, 0x00, 0x9c, 0x00, 0x00, 0x00, 0x94, 0x00, 0x00, 0x00, 0x74, 0x00, 0x00, 0x00, 0x04, 0x00, 0x00, 0x00, 0x06, 0xfc, 0xff, 0xff, 0x04, 0x00, 0x00, 0x00, 0x60, 0x00, 0x00, 0x00, 0x0c, 0x00, 0x00, 0x00, 0x08, 0x00, 0x0e, 0x00, 0x08, 0x00, 0x04, 0x00, 0x08, 0x00, 0x00, 0x00, 0x10, 0x00, 0x00, 0x00, 0x28, 0x00, 0x00, 0x00, 0x00, 0x00, 0x06, 0x00, 0x08, 0x00, 0x04, 0x00, 0x06, 0x00, 0x00, 0x00, 0x04, 0x00, 0x00, 0x00, 0x01, 0x00, 0x00, 0x00, 0xea, 0x03, 0x00, 0x00, 0x0c, 0x00, 0x18, 0x00, 0x14, 0x00, 0x10, 0x00, 0x0c, 0x00, 0x04, 0x00, 0x0c, 0x00, 0x00, 0x00, 0x89, 0x66, 0xf0, 0x17, 0x45, 0xc8, 0x8d, 0x54, 0x02, 0x00, 0x00, 0x00, 0x02, 0x00, 0x00, 0x00, 0x04, 0x00, 0x00, 0x00, 0x06, 0x00, 0x00, 0x00, 0x32, 0x2e, 0x32, 0x30, 0x2e, 0x30, 0x00, 0x00, 0x72, 0xfc, 0xff, 0xff, 0x04, 0x00, 0x00, 0x00, 0x10, 0x00, 0x00, 0x00, 0x31, 0x2e, 0x31, 0x34, 0x2e, 0x30, 0x00, 0x00, 0x00, 0x00, 0x00, 0x00, 0x00, 0x00, 0x00, 0x00, 0xf4, 0xf6, 0xff, 0xff, 0xf8, 0xf6, 0xff, 0xff, 0xfc, 0xf6, 0xff, 0xff, 0x00, 0xf7, 0xff, 0xff, 0x9e, 0xfc, 0xff, 0xff, 0x04, 0x00, 0x00, 0x00, 0x40, 0x00, 0x00, 0x00, 0x00, 0x00, 0x00, 0x00, 0x00, 0x00, 0x00, 0x00, 0x07, 0xe8, 0x6f, 0xbd, 0x57, 0x47, 0xa8, 0x3d, 0x00, 0x00, 0x00, 0x00, 0x25, 0xe0, 0x2d, 0xbe, 0x7f, 0x1b, 0x2c, 0x3e, 0xe6, 0x2b, 0xfd, 0x3d, 0x1d, 0x39, 0xc1, 0xbc, 0xee, 0x84, 0xcd, 0x3c, 0xfc, 0xc5, 0x1b, 0x3e, 0x00, 0x00, 0x00, 0x00, 0x00, 0x00, 0x00, 0x00, 0x00, 0x00, 0x00, 0x00, 0xd5, 0x53, 0x25, 0x3e, 0x00, 0x00, 0x00, 0x00, 0xea, 0xfc, 0xff, 0xff, 0x04, 0x00, 0x00, 0x00, 0xc0, 0x00, 0x00, 0x00, 0xb7, 0x41, 0x0f, 0xbf, 0x9f, 0x46, 0x0a, 0xbf, 0x9a, 0xfb, 0x46, 0xbe, 0x6c, 0x8e, 0x1e, 0xbe, 0x2e, 0x93, 0x0f, 0xbf, 0x70, 0x1f, 0x1f, 0x3e, 0x23, 0xf4, 0x76, 0x3e, 0x7b, 0xdd, 0xe3, 0x3e, 0xa7, 0xd8, 0xce, 0x3d, 0xaf, 0x8b, 0x06, 0x3f, 0x8a, 0x5e, 0x79, 0xbe, 0x76, 0xcc, 0xc2, 0xbe, 0xd8, 0xb3, 0x22, 0xbe, 0x96, 0x08, 0xda, 0xbe, 0x17, 0x89, 0xc3, 0xbe, 0x4f, 0xfc, 0x95, 0x3e, 0x02, 0x5a, 0x32, 0xbe, 0xd1, 0x5f, 0x1c, 0x3f, 0x02, 0x83, 0x92, 0x3d, 0xe8, 0xa2, 0x25, 0xbd, 0xb9, 0x26, 0x6d, 0x3e, 0xd4, 0x74, 0x5d, 0x3e, 0x2f, 0x44, 0x63, 0xbe, 0xfc, 0x58, 0x03, 0x3f, 0x4f, 0x90, 0x1d, 0x3d, 0x02, 0xa2, 0x3b, 0xbe, 0x6e, 0x86, 0x3f, 0x3f, 0x66, 0x3a, 0x96, 0x3e, 0x1b, 0x38, 0xd2, 0xbe, 0x6f, 0x32, 0x86, 0x3d, 0xc3, 0xae, 0x6c, 0x3d, 0xef, 0xf7, 0x75, 0x3e, 0x41, 0x9f, 0xa4, 0xbe, 0x60, 0xdb, 0xc1, 0xbe, 0x60, 0xba, 0x40, 0xbd, 0x0c, 0x2e, 0x41, 0xbe, 0x82, 0x77, 0xbe, 0xbe, 0xb0, 0x9c, 0x07, 0x3e, 0x10, 0x98, 0x7c, 0x3d, 0x87, 0x34, 0x0d, 0xbf, 0x30, 0x93, 0x05, 0x3d, 0x24, 0x6e, 0xdf, 0xbe, 0x42, 0xd0, 0xe5, 0x3e, 0x25, 0x3d, 0x9c, 0x3e, 0x66, 0x21, 0xe1, 0xbd, 0x92, 0x0f, 0xcc, 0xbe, 0xae, 0xb6, 0xe2, 0xbe, 0x76, 0x46, 0xf7, 0x3e, 0xb6, 0xfd, 0xff, 0xff, 0x04, 0x00, 0x00, 0x00, 0x00, 0x02, 0x00, 0x00, 0x40, 0x90, 0x5f, 0xbe, 0xa4, 0xff, 0xb8, 0x3e, 0x90, 0xf0, 0x2c, 0xbd, 0xdc, 0x2c, 0x8d, 0x3c, 0xf4, 0x2f, 0xb1, 0xbe, 0xe2, 0x91, 0x5f, 0xbe, 0x9c, 0x11, 0x96, 0xbe, 0x1a, 0x48, 0x08, 0x3e, 0x92, 0xdd, 0xc6, 0xbd, 0x85, 0x1f, 0x57, 0x3e, 0xb9, 0xd7, 0x2a, 0x3f, 0xe8, 0xeb, 0xb8, 0x3e, 0xb0, 0x07, 0x2d, 0xbe, 0x70, 0xf8, 0x0b, 0xbe, 0xbd, 0x76, 0xe9, 0x3e, 0xa8, 0x15, 0xc6, 0xbe, 0xf0, 0xac, 0xd3, 0xbd, 0xbc, 0xa9, 0xce, 0xbe, 0xc2, 0x41, 0x65, 0xbe, 0xef, 0x94, 0x4a, 0x3e, 0xe4, 0x7a, 0xa5, 0x3e, 0x8a, 0xf5, 0x6e, 0xbd, 0x84, 0x89, 0x63, 0xbe, 0x1e, 0x1e, 0xb0, 0x3e, 0xc1, 0x26, 0x49, 0xbe, 0x4c, 0xb5, 0x82, 0xbb, 0x05, 0x6f, 0x31, 0x3f, 0x90, 0x7d, 0xa2, 0x3e, 0xfc, 0xf6, 0xf9, 0xbe, 0x44, 0xd9, 0x82, 0xbe, 0xd1, 0x2f, 0xbd, 0x3e, 0xf4, 0x7c, 0x95, 0x3e, 0x30, 0x23, 0xf5, 0xbd, 0xc0, 0x65, 0x0b, 0x3e, 0xae, 0xa7, 0xbd, 0x3e, 0xe2, 0xef, 0xc5, 0xbe, 0x80, 0x7e, 0xdb, 0x3e, 0x2d, 0x93, 0x01, 0xbf, 0xcc, 0xda, 0xc1, 0x3e, 0xe0, 0x51, 0x9b, 0x3c, 0xec, 0x8a, 0xb8, 0xbe, 0xe0, 0x62, 0x82, 0xbd, 0x8b, 0x49, 0xe8, 0x3d, 0x34, 0x4a, 0x86, 0x3e, 0xd0, 0x27, 0xf3, 0xbd, 0x30, 0x47, 0xb4, 0x3d, 0xa5, 0x3e, 0xa8, 0xbe, 0xb0, 0x33, 0x3e, 0xbe, 0x40, 0xa4, 0x79, 0xbe, 0x0c, 0xcc, 0xd2, 0x3e, 0xf8, 0xcf, 0x2b, 0xbe, 0x30, 0x78, 0x4b, 0xbe, 0xa0, 0xae, 0x3e, 0xbd, 0xb0, 0xc8, 0xb6, 0xbd, 0x90, 0xb8, 0xe3, 0xbe, 0x20, 0x24, 0x1d, 0x3d, 0x50, 0x52, 0xe4, 0xbe, 0x38, 0xb8, 0x45, 0xbe, 0x40, 0xac, 0x45, 0xbe, 0x80, 0xd7, 0xdb, 0x3d, 0x8c, 0xa9, 0xa7, 0x3e, 0xf8, 0xdb, 0x20, 0xbe, 0x80, 0x69, 0xc0, 0x3d, 0x4c, 0xb1, 0xa7, 0x3e, 0x7c, 0xd8, 0xc2, 0xbe, 0x14, 0xf2, 0x80, 0xbe, 0xc0, 0x6d, 0x9d, 0xbe, 0x90, 0x53, 0x1c, 0xbe, 0xc8, 0x96, 0x42, 0xbe, 0xfc, 0x67, 0x80, 0x3e, 0xd9, 0x25, 0x0a, 0x3e, 0x30, 0xdb, 0xb2, 0x3e, 0xf7, 0xe9, 0x21, 0xbf, 0xbb, 0xf2, 0x0e, 0x3f, 0xfc, 0x85, 0xed, 0xbd, 0x80, 0xb5, 0xe5, 0xbc, 0xe8, 0xd7, 0x40, 0x3e, 0x18, 0x7f, 0xf2, 0xbe, 0x82, 0x98, 0x12, 0x3f, 0xbc, 0x8a, 0x9a, 0x3e, 0x00, 0x29, 0x81, 0x3b, 0x58, 0x9b, 0x38, 0xbe, 0x45, 0xff, 0xa4, 0x3e, 0x97, 0x46, 0x15, 0xbd, 0x38, 0xdb, 0x47, 0xbe, 0x30, 0xcb, 0x8e, 0x3e, 0x90, 0xf4, 0x57, 0xbd, 0xd5, 0x7a, 0x1b, 0x3f, 0x6b, 0x44, 0x4d, 0x3e, 0xbd, 0x6c, 0xac, 0xbe, 0x38, 0xfe, 0x02, 0xbe, 0xf0, 0x29, 0x3f, 0xbe, 0x50, 0x6b, 0xc4, 0x3e, 0x14, 0xbb, 0xbb, 0xbe, 0x93, 0x31, 0x3d, 0xbe, 0x60, 0x73, 0x08, 0xbe, 0xe8, 0x1c, 0xd3, 0x3e, 0xc8, 0xd6, 0x2e, 0xbe, 0xb1, 0xea, 0x06, 0xbf, 0x30, 0xb4, 0x97, 0xbe, 0x70, 0x42, 0xbe, 0xbe, 0x4c, 0xe0, 0x04, 0x3e, 0x7f, 0x16, 0x07, 0x3e, 0x69, 0xed, 0x4d, 0x3e, 0xae, 0x89, 0xda, 0x3d, 0x2e, 0x76, 0x3c, 0x3d, 0x01, 0x49, 0x25, 0xbe, 0x00, 0x86, 0x30, 0xbb, 0x48, 0xdf, 0xc5, 0xbe, 0x70, 0x89, 0x68, 0x3e, 0x77, 0xda, 0x31, 0x3d, 0x80, 0x34, 0xdc, 0x3c, 0x80, 0xa4, 0x7d, 0x3d, 0x80, 0x00, 0x21, 0xbc, 0x6a, 0x20, 0x70, 0x3e, 0xeb, 0x7e, 0xf0, 0x3e, 0xb8, 0xcb, 0xa0, 0xbe, 0x15, 0xd1, 0x00, 0xbf, 0x5d, 0xff, 0xd0, 0x3e, 0x62, 0x39, 0xe8, 0xbb, 0x89, 0xfb, 0x31, 0xbf, 0xbd, 0x89, 0x6b, 0xbe, 0xd7, 0x3f, 0x0a, 0xbd, 0x40, 0xc4, 0xc8, 0xbe, 0x48, 0x47, 0x47, 0xbe, 0xb0, 0x82, 0xa0, 0x3e, 0xbb, 0xfc, 0x63, 0x3e, 0xf0, 0x60, 0x9b, 0xbe, 0xc2, 0xff, 0xff, 0xff, 0x04, 0x00, 0x00, 0x00, 0x20, 0x00, 0x00, 0x00, 0x7a, 0xa9, 0x8a, 0xbe, 0x62, 0xf0, 0xfa, 0xbe, 0x03, 0x00, 0xc1, 0x3d, 0x94, 0x78, 0x8b, 0x3e, 0x76, 0x3a, 0xb9, 0xbe, 0x2c, 0x86, 0x5b, 0x3f, 0x04, 0xfc, 0x11, 0x3f, 0xaf, 0x4b, 0x89, 0xbf, 0xee, 0xff, 0xff, 0xff, 0x04, 0x00, 0x00, 0x00, 0x04, 0x00, 0x00, 0x00, 0x28, 0xd0, 0x07, 0xbe, 0x00, 0x00, 0x06, 0x00, 0x08, 0x00, 0x04, 0x00, 0x06, 0x00, 0x00, 0x00, 0x04, 0x00, 0x00, 0x00, 0x20, 0x00, 0x00, 0x00, 0x7a, 0xd3, 0x31, 0x3e, 0x3c, 0x3f, 0x1c, 0x3e, 0x85, 0xd5, 0x53, 0xbc, 0x00, 0x00, 0x00, 0x00, 0xc6, 0x13, 0x15, 0x3e, 0xd5, 0x3a, 0xa8, 0xbd, 0xac, 0x88, 0xe4, 0xbc, 0x22, 0xea, 0x32, 0x3e, 0x98, 0xfa, 0xff, 0xff, 0x9c, 0xfa, 0xff, 0xff, 0x0f, 0x00, 0x00, 0x00, 0x4d, 0x4c, 0x49, 0x52, 0x20, 0x43, 0x6f, 0x6e, 0x76, 0x65, 0x72, 0x74, 0x65, 0x64, 0x2e, 0x00, 0x01, 0x00, 0x00, 0x00, 0x14, 0x00, 0x00, 0x00, 0x00, 0x00, 0x0e, 0x00, 0x18, 0x00, 0x14, 0x00, 0x10, 0x00, 0x0c, 0x00, 0x08, 0x00, 0x04, 0x00, 0x0e, 0x00, 0x00, 0x00, 0x14, 0x00, 0x00, 0x00, 0x1c, 0x00, 0x00, 0x00, 0x08, 0x01, 0x00, 0x00, 0x0c, 0x01, 0x00, 0x00, 0x10, 0x01, 0x00, 0x00, 0x04, 0x00, 0x00, 0x00, 0x6d, 0x61, 0x69, 0x6e, 0x00, 0x00, 0x00, 0x00, 0x04, 0x00, 0x00, 0x00, 0xb0, 0x00, 0x00, 0x00, 0x68, 0x00, 0x00, 0x00, 0x34, 0x00, 0x00, 0x00, 0x10, 0x00, 0x00, 0x00, 0x00, 0x00, 0x0a, 0x00, 0x10, 0x00, 0x0c, 0x00, 0x08, 0x00, 0x04, 0x00, 0x0a, 0x00, 0x00, 0x00, 0x0c, 0x00, 0x00, 0x00, 0x10, 0x00, 0x00, 0x00, 0x01, 0x00, 0x00, 0x00, 0x01, 0x00, 0x00, 0x00, 0x0a, 0x00, 0x00, 0x00, 0x01, 0x00, 0x00, 0x00, 0x09, 0x00, 0x00, 0x00, 0x9a, 0xff, 0xff, 0xff, 0x10, 0x00, 0x00, 0x00, 0x00, 0x00, 0x00, 0x08, 0x0c, 0x00, 0x00, 0x00, 0x10, 0x00, 0x00, 0x00, 0x44, 0xfb, 0xff, 0xff, 0x01, 0x00, 0x00, 0x00, 0x09, 0x00, 0x00, 0x00, 0x03, 0x00, 0x00, 0x00, 0x08, 0x00, 0x00, 0x00, 0x03, 0x00, 0x00, 0x00, 0x02, 0x00, 0x00, 0x00, 0xca, 0xff, 0xff, 0xff, 0x10, 0x00, 0x00, 0x00, 0x00, 0x00, 0x00, 0x08, 0x10, 0x00, 0x00, 0x00, 0x14, 0x00, 0x00, 0x00, 0xba, 0xff, 0xff, 0xff, 0x00, 0x00, 0x00, 0x01, 0x01, 0x00, 0x00, 0x00, 0x08, 0x00, 0x00, 0x00, 0x03, 0x00, 0x00, 0x00, 0x07, 0x00, 0x00, 0x00, 0x04, 0x00, 0x00, 0x00, 0x01, 0x00, 0x00, 0x00, 0x00, 0x00, 0x0e, 0x00, 0x16, 0x00, 0x00, 0x00, 0x10, 0x00, 0x0c, 0x00, 0x0b, 0x00, 0x04, 0x00, 0x0e, 0x00, 0x00, 0x00, 0x18, 0x00, 0x00, 0x00, 0x00, 0x00, 0x00, 0x08, 0x18, 0x00, 0x00, 0x00, 0x1c, 0x00, 0x00, 0x00, 0x00, 0x00, 0x06, 0x00, 0x08, 0x00, 0x07, 0x00, 0x06, 0x00, 0x00, 0x00, 0x00, 0x00, 0x00, 0x01, 0x01, 0x00, 0x00, 0x00, 0x07, 0x00, 0x00, 0x00, 0x03, 0x00, 0x00, 0x00, 0x00, 0x00, 0x00, 0x00, 0x05, 0x00, 0x00, 0x00, 0x06, 0x00, 0x00, 0x00, 0x01, 0x00, 0x00, 0x00, 0x0a, 0x00, 0x00, 0x00, 0x01, 0x00, 0x00, 0x00, 0x00, 0x00, 0x00, 0x00, 0x0b, 0x00, 0x00, 0x00, 0xe4, 0x03, 0x00, 0x00, 0x90, 0x03, 0x00, 0x00, 0x3c, 0x03, 0x00, 0x00, 0xfc, 0x02, 0x00, 0x00, 0xbc, 0x02, 0x00, 0x00, 0x70, 0x02, 0x00, 0x00, 0x0c, 0x02, 0x00, 0x00, 0x78, 0x01, 0x00, 0x00, 0xdc, 0x00, 0x00, 0x00, 0x60, 0x00, 0x00, 0x00, 0x04, 0x00, 0x00, 0x00, 0x5e, 0xfc, 0xff, 0xff, 0x00, 0x00, 0x00, 0x01, 0x14, 0x00, 0x00, 0x00, 0x1c, 0x00, 0x00, 0x00, 0x1c, 0x00, 0x00, 0x00, 0x0b, 0x00, 0x00, 0x00, 0x34, 0x00, 0x00, 0x00, 0x02, 0x00, 0x00, 0x00, 0xff, 0xff, 0xff, 0xff, 0x01, 0x00, 0x00, 0x00, 0x48, 0xfc, 0xff, 0xff, 0x1b, 0x00, 0x00, 0x00, 0x53, 0x74, 0x61, 0x74, 0x65, 0x66, 0x75, 0x6c, 0x50, 0x61, 0x72, 0x74, 0x69, 0x74, 0x69, 0x6f, 0x6e, 0x65, 0x64, 0x43, 0x61, 0x6c, 0x6c, 0x5f, 0x31, 0x3a, 0x30, 0x00, 0x02, 0x00, 0x00, 0x00, 0x01, 0x00, 0x00, 0x00, 0x01, 0x00, 0x00, 0x00, 0xb6, 0xfc, 0xff, 0xff, 0x00, 0x00, 0x00, 0x01, 0x14, 0x00, 0x00, 0x00, 0x1c, 0x00, 0x00, 0x00, 0x1c, 0x00, 0x00, 0x00, 0x0a, 0x00, 0x00, 0x00, 0x54, 0x00, 0x00, 0x00, 0x02, 0x00, 0x00, 0x00, 0xff, 0xff, 0xff, 0xff, 0x01, 0x00, 0x00, 0x00, 0xa0, 0xfc, 0xff, 0xff, 0x38, 0x00, 0x00, 0x00, 0x73, 0x65, 0x71, 0x75, 0x65, 0x6e, 0x74, 0x69, 0x61, 0x6c, 0x5f, 0x31, 0x2f, 0x64, 0x65, 0x6e, 0x73, 0x65, 0x5f, 0x32, 0x5f, 0x31, 0x2f, 0x4d, 0x61, 0x74, 0x4d, 0x75, 0x6c, 0x3b, 0x73, 0x65, 0x71, 0x75, 0x65, 0x6e, 0x74, 0x69, 0x61, 0x6c, 0x5f, 0x31, 0x2f, 0x64, 0x65, 0x6e, 0x73, 0x65, 0x5f, 0x32, 0x5f, 0x31, 0x2f, 0x41, 0x64, 0x64, 0x00, 0x00, 0x00, 0x00, 0x02, 0x00, 0x00, 0x00, 0x01, 0x00, 0x00, 0x00, 0x01, 0x00, 0x00, 0x00, 0x2e, 0xfd, 0xff, 0xff, 0x00, 0x00, 0x00, 0x01, 0x14, 0x00, 0x00, 0x00, 0x1c, 0x00, 0x00, 0x00, 0x1c, 0x00, 0x00, 0x00, 0x09, 0x00, 0x00, 0x00, 0x74, 0x00, 0x00, 0x00, 0x02, 0x00, 0x00, 0x00, 0xff, 0xff, 0xff, 0xff, 0x08, 0x00, 0x00, 0x00, 0x18, 0xfd, 0xff, 0xff, 0x58, 0x00, 0x00, 0x00, 0x73, 0x65, 0x71, 0x75, 0x65, 0x6e, 0x74, 0x69, 0x61, 0x6c, 0x5f, 0x31, 0x2f, 0x64, 0x65, 0x6e, 0x73, 0x65, 0x5f, 0x31, 0x5f, 0x32, 0x2f, 0x4d, 0x61, 0x74, 0x4d, 0x75, 0x6c, 0x3b, 0x73, 0x65, 0x71, 0x75, 0x65, 0x6e, 0x74, 0x69, 0x61, 0x6c, 0x5f, 0x31, 0x2f, 0x64, 0x65, 0x6e, 0x73, 0x65, 0x5f, 0x31, 0x5f, 0x32, 0x2f, 0x52, 0x65, 0x6c, 0x75, 0x3b, 0x73, 0x65, 0x71, 0x75, 0x65, 0x6e, 0x74, 0x69, 0x61, 0x6c, 0x5f, 0x31, 0x2f, 0x64, 0x65, 0x6e, 0x73, 0x65, 0x5f, 0x31, 0x5f, 0x32, 0x2f, 0x42, 0x69, 0x61, 0x73, 0x41, 0x64, 0x64, 0x00, 0x00, 0x00, 0x00, 0x02, 0x00, 0x00, 0x00, 0x01, 0x00, 0x00, 0x00, 0x08, 0x00, 0x00, 0x00, 0xc6, 0xfd, 0xff, 0xff, 0x00, 0x00, 0x00, 0x01, 0x14, 0x00, 0x00, 0x00, 0x1c, 0x00, 0x00, 0x00, 0x1c, 0x00, 0x00, 0x00, 0x08, 0x00, 0x00, 0x00, 0x6c, 0x00, 0x00, 0x00, 0x02, 0x00, 0x00, 0x00, 0xff, 0xff, 0xff, 0xff, 0x10, 0x00, 0x00, 0x00, 0xb0, 0xfd, 0xff, 0xff, 0x52, 0x00, 0x00, 0x00, 0x73, 0x65, 0x71, 0x75, 0x65, 0x6e, 0x74, 0x69, 0x61, 0x6c, 0x5f, 0x31, 0x2f, 0x64, 0x65, 0x6e, 0x73, 0x65, 0x5f, 0x31, 0x2f, 0x4d, 0x61, 0x74, 0x4d, 0x75, 0x6c, 0x3b, 0x73, 0x65, 0x71, 0x75, 0x65, 0x6e, 0x74, 0x69, 0x61, 0x6c, 0x5f, 0x31, 0x2f, 0x64, 0x65, 0x6e, 0x73, 0x65, 0x5f, 0x31, 0x2f, 0x52, 0x65, 0x6c, 0x75, 0x3b, 0x73, 0x65, 0x71, 0x75, 0x65, 0x6e, 0x74, 0x69, 0x61, 0x6c, 0x5f, 0x31, 0x2f, 0x64, 0x65, 0x6e, 0x73, 0x65, 0x5f, 0x31, 0x2f, 0x42, 0x69, 0x61, 0x73, 0x41, 0x64, 0x64, 0x00, 0x00, 0x02, 0x00, 0x00, 0x00, 0x01, 0x00, 0x00, 0x00, 0x10, 0x00, 0x00, 0x00, 0xa6, 0xfe, 0xff, 0xff, 0x00, 0x00, 0x00, 0x01, 0x10, 0x00, 0x00, 0x00, 0x10, 0x00, 0x00, 0x00, 0x07, 0x00, 0x00, 0x00, 0x44, 0x00, 0x00, 0x00, 0x30, 0xfe, 0xff, 0xff, 0x36, 0x00, 0x00, 0x00, 0x73, 0x65, 0x71, 0x75, 0x65, 0x6e, 0x74, 0x69, 0x61, 0x6c, 0x5f, 0x31, 0x2f, 0x64, 0x65, 0x6e, 0x73, 0x65, 0x5f, 0x31, 0x2f, 0x52, 0x65, 0x6c, 0x75, 0x3b, 0x73, 0x65, 0x71, 0x75, 0x65, 0x6e, 0x74, 0x69, 0x61, 0x6c, 0x5f, 0x31, 0x2f, 0x64, 0x65, 0x6e, 0x73, 0x65, 0x5f, 0x31, 0x2f, 0x42, 0x69, 0x61, 0x73, 0x41, 0x64, 0x64, 0x00, 0x00, 0x01, 0x00, 0x00, 0x00, 0x10, 0x00, 0x00, 0x00, 0x06, 0xff, 0xff, 0xff, 0x00, 0x00, 0x00, 0x01, 0x10, 0x00, 0x00, 0x00, 0x10, 0x00, 0x00, 0x00, 0x06, 0x00, 0x00, 0x00, 0x28, 0x00, 0x00, 0x00, 0x90, 0xfe, 0xff, 0xff, 0x1b, 0x00, 0x00, 0x00, 0x73, 0x65, 0x71, 0x75, 0x65, 0x6e, 0x74, 0x69, 0x61, 0x6c, 0x5f, 0x31, 0x2f, 0x64, 0x65, 0x6e, 0x73, 0x65, 0x5f, 0x31, 0x2f, 0x4d, 0x61, 0x74, 0x4d, 0x75, 0x6c, 0x00, 0x02, 0x00, 0x00, 0x00, 0x10, 0x00, 0x00, 0x00, 0x03, 0x00, 0x00, 0x00, 0x4e, 0xff, 0xff, 0xff, 0x00, 0x00, 0x00, 0x01, 0x10, 0x00, 0x00, 0x00, 0x10, 0x00, 0x00, 0x00, 0x05, 0x00, 0x00, 0x00, 0x1c, 0x00, 0x00, 0x00, 0xd8, 0xfe, 0xff, 0xff, 0x0f, 0x00, 0x00, 0x00, 0x61, 0x72, 0x69, 0x74, 0x68, 0x2e, 0x63, 0x6f, 0x6e, 0x73, 0x74, 0x61, 0x6e, 0x74, 0x33, 0x00, 0x02, 0x00, 0x00, 0x00, 0x08, 0x00, 0x00, 0x00, 0x10, 0x00, 0x00, 0x00, 0x8a, 0xff, 0xff, 0xff, 0x00, 0x00, 0x00, 0x01, 0x10, 0x00, 0x00, 0x00, 0x10, 0x00, 0x00, 0x00, 0x04, 0x00, 0x00, 0x00, 0x1c, 0x00, 0x00, 0x00, 0x14, 0xff, 0xff, 0xff, 0x0f, 0x00, 0x00, 0x00, 0x61, 0x72, 0x69, 0x74, 0x68, 0x2e, 0x63, 0x6f, 0x6e, 0x73, 0x74, 0x61, 0x6e, 0x74, 0x32, 0x00, 0x02, 0x00, 0x00, 0x00, 0x01, 0x00, 0x00, 0x00, 0x08, 0x00, 0x00, 0x00, 0xc6, 0xff, 0xff, 0xff, 0x00, 0x00, 0x00, 0x01, 0x10, 0x00, 0x00, 0x00, 0x10, 0x00, 0x00, 0x00, 0x03, 0x00, 0x00, 0x00, 0x1c, 0x00, 0x00, 0x00, 0x50, 0xff, 0xff, 0xff, 0x0f, 0x00, 0x00, 0x00, 0x61, 0x72, 0x69, 0x74, 0x68, 0x2e, 0x63, 0x6f, 0x6e, 0x73, 0x74, 0x61, 0x6e, 0x74, 0x31, 0x00, 0x01, 0x00, 0x00, 0x00, 0x01, 0x00, 0x00, 0x00, 0x00, 0x00, 0x16, 0x00, 0x18, 0x00, 0x14, 0x00, 0x00, 0x00, 0x10, 0x00, 0x0c, 0x00, 0x08, 0x00, 0x00, 0x00, 0x00, 0x00, 0x00, 0x00, 0x07, 0x00, 0x16, 0x00, 0x00, 0x00, 0x00, 0x00, 0x00, 0x01, 0x10, 0x00, 0x00, 0x00, 0x10, 0x00, 0x00, 0x00, 0x02, 0x00, 0x00, 0x00, 0x1c, 0x00, 0x00, 0x00, 0xa0, 0xff, 0xff, 0xff, 0x0e, 0x00, 0x00, 0x00, 0x61, 0x72, 0x69, 0x74, 0x68, 0x2e, 0x63, 0x6f, 0x6e, 0x73, 0x74, 0x61, 0x6e, 0x74, 0x00, 0x00, 0x01, 0x00, 0x00, 0x00, 0x08, 0x00, 0x00, 0x00, 0x00, 0x00, 0x16, 0x00, 0x1c, 0x00, 0x18, 0x00, 0x00, 0x00, 0x14, 0x00, 0x10, 0x00, 0x0c, 0x00, 0x00, 0x00, 0x00, 0x00, 0x08, 0x00, 0x07, 0x00, 0x16, 0x00, 0x00, 0x00, 0x00, 0x00, 0x00, 0x01, 0x14, 0x00, 0x00, 0x00, 0x20, 0x00, 0x00, 0x00, 0x20, 0x00, 0x00, 0x00, 0x01, 0x00, 0x00, 0x00, 0x3c, 0x00, 0x00, 0x00, 0x02, 0x00, 0x00, 0x00, 0xff, 0xff, 0xff, 0xff, 0x03, 0x00, 0x00, 0x00, 0x04, 0x00, 0x04, 0x00, 0x04, 0x00, 0x00, 0x00, 0x1e, 0x00, 0x00, 0x00, 0x73, 0x65, 0x72, 0x76, 0x69, 0x6e, 0x67, 0x5f, 0x64, 0x65, 0x66, 0x61, 0x75, 0x6c, 0x74, 0x5f, 0x6b, 0x65, 0x72, 0x61, 0x73, 0x5f, 0x74, 0x65, 0x6e, 0x73, 0x6f, 0x72, 0x3a, 0x30, 0x00, 0x00, 0x02, 0x00, 0x00, 0x00, 0x01, 0x00, 0x00, 0x00, 0x03, 0x00, 0x00, 0x00, 0x02, 0x00, 0x00, 0x00, 0x20, 0x00, 0x00, 0x00, 0x04, 0x00, 0x00, 0x00, 0xf4, 0xff, 0xff, 0xff, 0x0e, 0x00, 0x00, 0x00, 0x00, 0x00, 0x00, 0x0e, 0x0c, 0x00, 0x0c, 0x00, 0x0b, 0x00, 0x00, 0x00, 0x00, 0x00, 0x04, 0x00, 0x0c, 0x00, 0x00, 0x00, 0x09, 0x00, 0x00, 0x00, 0x00, 0x00, 0x00, 0x09
};
const int TinyML_model_len = 2884;
